memory_initialization_radix=16,
memory_initialization_vector=
A3F1,
7C0E,
19B4,
D662,
44AF,
8E31,
F205,
3BD8,
91C7,
6A4D,
E18B,
27F0,
5C93,
B14E,
0D77,
C8A2,
2F6B,
74D9,
AE10,
13C5,
D94A,
68F2,
B703,
4E8C,
F961,
25DA,
80B7,
CB34,
1E6F,
57A8,
9D02,
36EC,
E471,
0A9B,
B85D,
63F4,
DC16,
2148,
7FA1,
95CE,
4B72,
C019,
186E,
A752,
6D83,
F4B0,
32C7,
8A1D,
D53E,
09F6,
BC21,
47A9,
E86C,
125F,
71D4,
9B08,
2CE3,
F671,
5A2C,
84DF,
D1B5,
3F40,
68AE,
97C2;